//----------------------------------------------------------------------------------
// WARNING: DO NOT EDIT THIS FILE !!!
//----------------------------------------------------------------------------------

#include "pvmaf_ml_model.h"
#include <stdalign.h>

const int layer_dim_pvmaf[layers_count_pvmaf] = {input_dim_pvmaf,mlp_dim1_pvmaf,mlp_dim2_pvmaf,output_dim_pvmaf};
alignas(32) const uint32_t feature_stats_pvmaf[3 * input_dim_pvmaf] =
{
  0x0, 0x3f02f2f3, 0x0, 0x0, 0x0, 0x0, 0x0, 0x0,  // 0.000000e+00 5.115196e-01 0.000000e+00 0.000000e+00 0.000000e+00 0.000000e+00 0.000000e+00 0.000000e+00
  0x40a13a07, 0x4233935b, 0x421334f9, 0x0, 0x4108fdc1, 0x4094d0a0, 0x0, 0x4480e361,  // 5.038333e+00 4.489390e+01 3.680173e+01 0.000000e+00 8.561952e+00 4.650467e+00 0.000000e+00 1.031106e+03
  0x0, 0x420ab33e, 0x4821b0c0, 0x0, 0x490105e8, 0x0, 0x0, 0x0,  // 0.000000e+00 3.467504e+01 1.655710e+05 0.000000e+00 5.284785e+05 0.000000e+00 0.000000e+00 0.000000e+00
  0x3ca0a0a1, 0x3ef13a4b, 0x3f800000, 0x3f800000, 0x3f800000, 0x3f800000, 0x3f800000, 0x3f800000,  // 1.960784e-02 4.711479e-01 1.000000e+00 1.000000e+00 1.000000e+00 1.000000e+00 1.000000e+00 1.000000e+00
  0x3d1cf50f, 0x3ccf9f22, 0x3ce12248, 0x3f800000, 0x3dccf21f, 0x3e1793cb, 0x3f800000, 0x39e7800a,  // 3.831964e-02 2.534443e-02 2.748217e-02 1.000000e+00 1.000712e-01 1.480247e-01 1.000000e+00 4.415515e-04
  0x3f800000, 0x3e0a3e12, 0x2f119812, 0x3584457c, 0x351184bb, 0x3f800000, 0x3f800000, 0x3f800000,  // 1.000000e+00 1.350024e-01 1.324170e-10 9.854989e-07 5.420986e-07 1.000000e+00 1.000000e+00 1.000000e+00
  0x424c0000, 0x438aee9c, 0x3f800000, 0x3f800000, 0x3f800000, 0x3f800000, 0x3f800000, 0x3f800000,  // 5.100000e+01 2.778641e+02 1.000000e+00 1.000000e+00 1.000000e+00 1.000000e+00 1.000000e+00 1.000000e+00
  0x450c4000, 0x4321b911, 0x4321b8b0, 0x3f800000, 0x42448a87, 0x4245587b, 0x3f800000, 0x4692fa47,  // 2.244000e+03 1.617229e+02 1.617214e+02 1.000000e+00 4.913528e+01 4.933641e+01 1.000000e+00 1.881314e+04
  0x40a00000, 0x42700000, 0x53d55810, 0x4f2b15f4, 0x4c08bf3a, 0x0, 0x0, 0x0,  // 5.000000e+00 6.000000e+01 1.832611e+12 2.870343e+09 3.584740e+07 0.000000e+00 0.000000e+00 0.000000e+00
};

alignas(32) const uint32_t model_weights_pvmaf[((input_dim_pvmaf+1) * mlp_dim1_pvmaf) + ((mlp_dim1_pvmaf+1) * mlp_dim2_pvmaf) + ((mlp_dim2_pvmaf+1) * output_dim_pvmaf)] =
{
  0x3ea04dbe, 0xbb440c0a, 0xc05ff111, 0x3f0d6ab5, 0x3ee263c0, 0xbf41a25b, 0x3f7e144b, 0x3efafc48,  // 0.313093 -0.002991 -3.499089 0.552409 0.442167 -0.756384 0.992497 0.490206
  0xbda02402, 0x3e86ef89, 0x3e8df7b4, 0xbeaf8531, 0xbe3be76c, 0xbe95f7c9, 0xbe74280d, 0x3f981ac5,  // -0.078194 0.263546 0.277280 -0.342813 -0.183500 -0.292906 -0.238434 1.188317
  0xbf6106f8, 0x3e1d9c3d, 0x3944081c, 0x3bcc6d9e, 0x3ce6b1fd, 0x3d8f63d8, 0xbd8d514c, 0xbda1acd4,  // -0.879013 0.153916 0.000187 0.006239 0.028161 0.070015 -0.069003 -0.078943
  0x3e0bbc78, 0x3cf64006, 0x3f5e5f77, 0xbf907e3b, 0x3f8af4e5, 0xbebcd807, 0x3f2331c0, 0x3f18bb98,  // 0.136461 0.030060 0.868644 -1.128852 1.085599 -0.368836 0.637478 0.596612
  0xbc4c1163, 0xbe092b95, 0x3e8cd5a7, 0xbd54d35f, 0xbee41482, 0x3e82dcdf, 0xbdab7848, 0x3de8ac05,  // -0.012455 -0.133955 0.275068 -0.051959 -0.445469 0.255591 -0.083726 0.113609
  0xbc8acc23, 0xbf75aa2d, 0xbdd46eee, 0x3c07229c, 0x3d54b97b, 0x3e91a534, 0xbdd90eb4, 0x3d2ac8c0,  // -0.016943 -0.959628 -0.103727 0.008248 0.051935 0.284464 -0.105985 0.041695
  0x3f4dfe58, 0xbcb860d0, 0x3f2137ac, 0x3ea68a86, 0xbeade8f0, 0x3f235727, 0xbd641272, 0xbe895f30,  // 0.804662 -0.022507 0.629756 0.325276 -0.339668 0.638049 -0.055682 -0.268304
  0x3de99660, 0xbe012ffe, 0x3f1a42ce, 0x3e6cbb93, 0xbdd7f699, 0xbdb76064, 0xbf3d82bd, 0xbd8b3c54,  // 0.114056 -0.126160 0.602582 0.231184 -0.105451 -0.089539 -0.740276 -0.067986
  0x3bb9db84, 0x3e173a48, 0xbe5388dd, 0x3c8ca3d8, 0xbc6514d5, 0x3e894d74, 0xbe551013, 0x3ea9243c,  // 0.005672 0.147683 -0.206577 0.017168 -0.013982 0.268169 -0.208069 0.330355
  0x3f16924d, 0x3d911ac4, 0xbe9c27b7, 0xbedf2b97, 0xbe7266ce, 0xbec1e942, 0xbe30d0cc, 0xbee809d3,  // 0.588170 0.070852 -0.304991 -0.435879 -0.236720 -0.378733 -0.172671 -0.453200
  0xbbf25dff, 0x3fd46010, 0xbf82d5b7, 0x3e660b13, 0x3f4396fc, 0xbef05ba0, 0x3f229a96, 0xbe095a1b,  // -0.007396 1.659182 -1.022147 0.224652 0.764023 -0.469449 0.635171 -0.134133
  0x3c9e9128, 0x3fdd32b1, 0xb99090be, 0xba84dcbc, 0xbbd41006, 0xbe9720c5, 0x3e50b19c, 0x3c9e52c0,  // 0.019356 1.728109 -0.000276 -0.001014 -0.006472 -0.295172 0.203803 0.019327
  0xbef75782, 0xbc93ddb0, 0xbf243759, 0xbd914721, 0xbf1c51b0, 0x3ea6a057, 0xbf01a26e, 0x3e04e6c4,  // -0.483090 -0.018050 -0.641470 -0.070936 -0.610621 0.325442 -0.506385 0.129787
  0xbc5fb1c0, 0xbf95c2ab, 0x3f8d5f55, 0x3f8659a6, 0xbeb78225, 0x3d669744, 0xbd79851a, 0x3e87ebd4,  // -0.013653 -1.170003 1.104472 1.049611 -0.358415 0.056297 -0.060918 0.265471
  0xbe2ca3da, 0xbe09679c, 0xba68a73c, 0xbc2f7ba1, 0xbce1d21a, 0xbe0c71a2, 0xbe0670bc, 0xbc4fd520,  // -0.168594 -0.134184 -0.000888 -0.010711 -0.027566 -0.137152 -0.131289 -0.012685
  0xbf0707f7, 0x3e0897f7, 0x3f2e3037, 0x3eb61fb3, 0x3ec7d71a, 0x3f194d22, 0x3f530aa9, 0x3f3f16ea,  // -0.527465 0.133392 0.680423 0.355711 0.390313 0.598833 0.824381 0.746443
  0x3c83e520, 0x3f003484, 0x3f1c66ed, 0x3e10d3b9, 0x3f86369b, 0xbe9f3b76, 0x3ead8e5c, 0x3acb9b07,  // 0.016100 0.500801 0.610946 0.141433 1.048541 -0.311001 0.338977 0.001553
  0xbc5553b5, 0xbdfed06a, 0x3c9719cf, 0x3b1da4fe, 0x3dc2e0ff, 0x3c0d4c80, 0xbdf46fe4, 0x3e1443cc,  // -0.013020 -0.124421 0.018445 0.002405 0.095156 0.008624 -0.119354 0.144790
  0xbf35db6b, 0x3d57ca71, 0x3f1b7e0e, 0x3eb792be, 0x3edd0943, 0xbe85e568, 0xbf3352b5, 0xbe3577bd,  // -0.710379 0.052683 0.607392 0.358541 0.431711 -0.261516 -0.700481 -0.177215
  0xbfc2fef6, 0xbe2b8b0e, 0xbf119b79, 0xbf2e58f4, 0x3f04f8af, 0xbe845f51, 0x3f7ff5c7, 0xbe7f88d6,  // -1.523406 -0.167523 -0.568779 -0.681045 0.519420 -0.258540 0.999844 -0.249545
  0x3d16adf8, 0xbe37f1bc, 0x3a1927ff, 0xbaeb5165, 0x3cef9e23, 0x3ea89a90, 0x3e4957b4, 0x3e0e665c,  // 0.036787 -0.179633 0.000584 -0.001795 0.029250 0.329304 0.196624 0.139062
  0x3f5c709c, 0x3d96a7f3, 0x3f5aefff, 0x3e254a62, 0x3d8e4060, 0x3f263a9e, 0x3eba7f50, 0xbe6becf3,  // 0.861093 0.073563 0.855225 0.161417 0.069459 0.649332 0.364253 -0.230396
  0x3e15ae36, 0x3dae7817, 0x3f159223, 0x3f5ad2ac, 0x3c25d2fe, 0xbd5494d7, 0xbec5f2fe, 0xbdab625a,  // 0.146172 0.085190 0.584261 0.854777 0.010121 -0.051900 -0.386620 -0.083684
  0xbc079da3, 0x3ee3d519, 0xbea8f1b8, 0x3cee2a44, 0x3cd74184, 0x3d44fe20, 0xbe3bac2b, 0x3da3fd1c,  // -0.008277 0.444985 -0.329969 0.029073 0.026276 0.048094 -0.183274 0.080073
  0x3fab0e39, 0x3d6240cf, 0xbf51d071, 0xbf3e7cea, 0xbf986155, 0xbfa399e5, 0xbfa5efe0, 0xbefc9e30,  // 1.336372 0.055238 -0.819587 -0.744094 -1.190470 -1.278134 -1.296383 -0.493394
  0x3dd8adcb, 0xbd3d5d56, 0xbf1286f9, 0x3eebeac5, 0xbf1022c7, 0x3eaf071f, 0x3f9aef3e, 0xbe899ae3,  // 0.105800 -0.046232 -0.572372 0.460776 -0.563031 0.341851 1.210426 -0.268760
  0x3deb9c78, 0xbf1aee85, 0x3d7ebb05, 0x3c64f603, 0xbf2388ad, 0x3da79bb8, 0xbe1eab32, 0x3e5ddcb4,  // 0.115045 -0.605202 0.062190 0.013975 -0.638804 0.081840 -0.154950 0.216662
  0xbf12aebc, 0x3e10dd31, 0x3cebc913, 0x3f5fce56, 0x3f2d1163, 0x4008174b, 0x3e62ce9f, 0x3f0df28f,  // -0.572979 0.141469 0.028782 0.874242 0.676047 2.126422 0.221491 0.554482
  0x3e7aae85, 0x3de110eb, 0x3f2ad195, 0x400f2f9f, 0x3eaee590, 0xbe8d0966, 0x3f21bc9c, 0xbcd0e5ec,  // 0.244806 0.109896 0.667260 2.237282 0.341595 -0.275462 0.631784 -0.025500
  0x3cb2b5ee, 0x3fcc4b71, 0x3d895651, 0x3c9b32a4, 0x3d0393b4, 0xbe2f3490, 0xbea24c12, 0x3e9e9e38,  // 0.021815 1.596052 0.067059 0.018945 0.032123 -0.171099 -0.316987 0.309801
  0x3fc16bee, 0x3e25e5b0, 0x3ec8605f, 0xbf28a068, 0xbf97fa3c, 0xbf788eef, 0x3e1a5488, 0xbf505d8c,  // 1.511106 0.162009 0.391360 -0.658698 -1.187324 -0.970931 0.150713 -0.813927
  0x3e1341e0, 0xbee8f65c, 0x3f958ede, 0xbf0b1050, 0x3f21daf8, 0xbe49c622, 0x3c8c5b10, 0xbed021a0,  // 0.143806 -0.455005 1.168422 -0.543218 0.632247 -0.197045 0.017133 -0.406507
  0x3d6dd3ae, 0xbfc4e2e6, 0x3bf447b7, 0x3ccaba7b, 0x3dbb2dbe, 0x3eb0f2b4, 0x3e1ebc24, 0x3e0132fc,  // 0.058063 -1.538174 0.007455 0.024747 0.091396 0.345602 0.155015 0.126171
  0x3e658eaf, 0x3cd81864, 0xc02fcedc, 0x3e0e22bd, 0x3d8e26e5, 0x4020a29a, 0x3e1f5df7, 0x3f1c9310,  // 0.224177 0.026379 -2.747001 0.138804 0.069410 2.509924 0.155632 0.611619
  0x3e3bec9e, 0x3f03c8a2, 0xbe300647, 0xbf986c90, 0xbe0174c2, 0x3de478bb, 0xbf89a843, 0x3c4f39aa,  // 0.183520 0.514780 -0.171899 -1.190813 -0.126422 0.111558 -1.075447 0.012648
  0xbcca671b, 0x3eefb8ed, 0x3d129540, 0xb9217538, 0x3db62732, 0x3e9c2cde, 0xbe86a75b, 0x3eb40fae,  // -0.024707 0.468208 0.035787 -0.000154 0.088942 0.305030 -0.262996 0.351682
  0x3eea6c99, 0xbbb239b6, 0xbf165180, 0xbf1a8109, 0xbe0d7f56, 0xbec7748d, 0xbf86e234, 0xbefd6dbd,  // 0.457860 -0.005439 -0.587181 -0.603531 -0.138181 -0.389561 -1.053778 -0.494978
  0xbd339f2d, 0xbf6fae30, 0xbffddd0a, 0xbf5fd3be, 0x3f7d8a76, 0x3df0bf4a, 0x3e83688e, 0x3eb9e74d,  // -0.043853 -0.936252 -1.983308 -0.874325 0.990394 0.117552 0.256657 0.363093
  0x3b16ed17, 0x3ddb3de2, 0x3bbed125, 0x3a18621b, 0xbc2bec52, 0x3c454d20, 0xbea5b70a, 0x3e8f6082,  // 0.002303 0.107052 0.005823 0.000581 -0.010493 0.012042 -0.323662 0.280033
  0x3cdd9478, 0x3d04cba4, 0x3f271e60, 0x3ec1dd32, 0x3f06effa, 0x3f09ec11, 0x3f1ab89a, 0x3f27c5e6,  // 0.027048 0.032421 0.652807 0.378641 0.527099 0.538758 0.604379 0.655363
  0xbd10441d, 0x3e0d062d, 0x3df4a873, 0xbe66c0e1, 0x3e9e06fd, 0xbdbfb206, 0x3e8fd213, 0x3d007160,  // -0.035221 0.137719 0.119462 -0.225345 0.308647 -0.093601 0.280900 0.031358
  0xbb9e5859, 0x3fab4e2d, 0xbc7e1480, 0x3952339c, 0xbc17d8b9, 0xbc892a00, 0x3d1251c0, 0x3cb5a5f0,  // -0.004832 1.338323 -0.015508 0.000200 -0.009268 -0.016744 0.035722 0.022174
  0x3da07949, 0x3e3bf99d, 0x3dcf3e0f, 0x3eb29f03, 0x3eb9fb59, 0x3f620cea, 0x3dcf27a6, 0x3dc47dbc,  // 0.078356 0.183569 0.101193 0.348869 0.363246 0.883010 0.101150 0.095943
  0xbc84a0af, 0x3f8f2093, 0x3ee047a4, 0x3eac0327, 0xbdc67fb9, 0x3f0e0a83, 0xbee1c1c5, 0xbd920991,  // -0.016190 1.118182 0.438047 0.335962 -0.096923 0.554848 -0.440931 -0.071307
  0xbd1df081, 0x3e99207a, 0x3c35d093, 0x3b4a1c8b, 0x3e28c240, 0x3e3379b8, 0xbe8caa0b, 0x3e166fb0,  // -0.038559 0.299076 0.011097 0.003084 0.164804 0.175269 -0.274735 0.146910
  0x3fd2ed35, 0xbe12ff80, 0xbf4fd026, 0xbea96285, 0xbee9b915, 0xbdb35d15, 0xbea40f48, 0xbf530ffe,  // 1.647864 -0.143553 -0.811770 -0.330830 -0.456490 -0.087580 -0.320429 -0.824463
  0xbbce92ff, 0xbf4ee4a3, 0xbfcfbf39, 0xbf0e76bb, 0x3ea4f663, 0x3e834342, 0x3f8409a3, 0x3df0b9cf,  // -0.006304 -0.808176 -1.623023 -0.556499 0.322192 0.256373 1.031544 0.117542
  0x3c37c329, 0xbf146377, 0xb96a5ac5, 0x3bb2b351, 0x3cc55525, 0x3d1e5c78, 0x3cdbd970, 0xbe944014,  // 0.011216 -0.579643 -0.000223 0.005454 0.024088 0.038662 0.026837 -0.289551
  0x3e8ff2f4, 0x3e801c80, 0x3c7b3b61, 0xbe574731, 0xbe147e52, 0x3f074ce6, 0xbe028296, 0x3db7ae93,  // 0.281150 0.250217 0.015334 -0.210233 -0.145013 0.528517 -0.127451 0.089688
  0xbf82624a, 0x3f882df9, 0xbf56bf97, 0x3f248cbb, 0xbf3121c6, 0x3f1978b3, 0x3e9ca876, 0xbf24e706,  // -1.018625 1.063903 -0.838861 0.642772 -0.691922 0.599498 0.305973 -0.644150
  0xbd85469c, 0x3e4f78f9, 0x3f1667b4, 0xbf0e7085, 0x3f2c801b, 0x3ef1b64f, 0xbfe23848, 0xbeac7219,  // -0.065076 0.202610 0.587520 -0.556404 0.673830 0.472094 -1.767343 -0.336808
  0x3defb42c, 0xbe355f52, 0x3e4bbe4a, 0xbdc88a98, 0x4058d0f3, 0xbf0aea63, 0xbef0293c, 0xbf1951de,  // 0.117043 -0.177121 0.198968 -0.097921 3.387753 -0.542639 -0.469065 -0.598905
  0xbe6b97ed, 0x3dda4e83, 0x3ee98707, 0xbf5ac671, 0xbf92ce64, 0xbe939063, 0x3cec30a3, 0x3d941dd0,  // -0.230072 0.106595 0.456108 -0.854590 -1.146924 -0.288211 0.028832 0.072322
  0xbf84ed1e, 0xbd84cecb, 0x3dee768e, 0xbe869a3b, 0x3e5cc1d1, 0x3e0e4a06, 0x3e44199e, 0x3ee73e29,  // -1.038486 -0.064848 0.116437 -0.262895 0.215583 0.138954 0.191504 0.451646
  0xbd7e0948, 0x3e1439f8, 0xbe9dda80, 0xbef243cf, 0x3e8b47b4, 0xbeb06773, 0x3fd882f9, 0xbe40e626,  // -0.062021 0.144752 -0.308308 -0.473174 0.272031 -0.344539 1.691497 -0.188378
  0xbea577a0, 0x3e3a88be, 0xbea15284, 0xbf269940, 0xbb824f82, 0xbf8c34e4, 0x3f104633, 0xbe9d8362,  // -0.323178 0.182162 -0.315083 -0.650776 -0.003977 -1.095364 0.563571 -0.307643
  0xbebd87c4, 0x3ddfe93e, 0x3df408a9, 0x3e19abcf, 0xbf621a81, 0x3e36783c, 0xc0b5068b, 0x3f45b30e,  // -0.370176 0.109332 0.119157 0.150069 -0.883217 0.178193 -5.657049 0.772263
  0xbf4787ff, 0xbe0e7484, 0xbf05b625, 0xbdaabcd2, 0xbf0e5452, 0xbf6d380b, 0x3e208ba5, 0x3dcdfa63,  // -0.779419 -0.139116 -0.522311 -0.083368 -0.555974 -0.926636 0.156783 0.100575
  0xbec7be78, 0x3dcd0fb2, 0x3e90e153, 0xbe104dc7, 0x3e5b5151, 0xbf391882, 0xbf21f49f, 0xbe90e691,  // -0.390125 0.100128 0.282969 -0.140922 0.214177 -0.723030 -0.632639 -0.283009
  0x3e8fb597, 0xbe866134, 0xbedcca0c, 0xbf32f0f5, 0x3c554203, 0x3f0cc5dd, 0x3cd06418, 0xbe72aabe,  // 0.280682 -0.262460 -0.431229 -0.698989 0.013016 0.549894 0.025438 -0.236979
  0x3deec8bc, 0x3ca73924, 0x3ed526c8, 0x3ef6a640, 0xbedf517d, 0x3e247ca3, 0xbf63adb5, 0x3ea3a9fe,  // 0.116594 0.020413 0.416312 0.481737 -0.436169 0.160632 -0.889369 0.319656
  0xbbba27d4, 0xbe5a3165, 0xbf1cf1f5, 0x3eeff998, 0x3f05d78b, 0x3e9bd7ab, 0x3dd80634, 0x3e8a740d,  // -0.005681 -0.213079 -0.613067 0.468701 0.522820 0.304380 0.105481 0.270417
  0x3d17a469, 0x3e209863, 0x3e30d38c, 0xbe8b6e53, 0xbe1fd6aa, 0xbeb88ce0, 0xbe41ed27, 0xbe7d4fe8,  // 0.037022 0.156831 0.172682 -0.272326 -0.156092 -0.360450 -0.189381 -0.247375
  0xbddcd069, 0x3e64e485, 0x3f0e5989, 0xbe6d7949, 0xbf753a80, 0x3deb1f38, 0x3ef5bf7b, 0x3ed67e92,  // -0.107819 0.223528 0.556054 -0.231908 -0.957924 0.114806 0.479977 0.418934
  0x3d7f5777, 0xbb9fc53e, 0x3e383a4b, 0xbdd3a608, 0xbe8622c4, 0x3dec2ecf, 0xbf01e54a, 0xbe264652,  // 0.062339 -0.004876 0.179910 -0.103344 -0.261984 0.115324 -0.507405 -0.162378
  0xbe5c44ca, 0x3eb6f114, 0x3e1064ea, 0xbeae9c2d, 0x3fadf9c0, 0x3ed51e4e, 0x3cc210b6, 0x3e9a4af3,  // -0.215106 0.357308 0.141010 -0.341035 1.359184 0.416247 0.023690 0.301353
  0x3d4043c1, 0x3cd98b12, 0xbe9c34be, 0xbf20551f, 0xbf129c88, 0xbf2c9ade, 0x3f6bfef7, 0x3e5a9c44,  // 0.046940 0.026556 -0.305090 -0.626299 -0.572701 -0.674238 0.921859 0.213487
  0xbe633e24, 0x3e566839, 0x3d365a54, 0xbe3ca362, 0x3eecca5d, 0xbe1b8ef0, 0xbe849da1, 0xbe2c7d7d,  // -0.221917 0.209382 0.044520 -0.184217 0.462481 -0.151912 -0.259015 -0.168447
  0xbdb81d8a, 0x3dac5fc8, 0x3e33c20d, 0x3f442f1b, 0x3e96ddb5, 0x3eaf3f84, 0x3f030ec6, 0xbe192641,  // -0.089900 0.084167 0.175545 0.766344 0.294660 0.342281 0.511944 -0.149560
  0x3d35534f, 0xbda4f73e, 0x3e2b54a3, 0xbd0849ef, 0xbeb1f9ec, 0xbded710a, 0xbe7cc049, 0x3f0cf28f,  // 0.044269 -0.080550 0.167315 -0.033274 -0.347610 -0.115938 -0.246827 0.550576
  0xbce98bec, 0xbda0a216, 0x3e2464ea, 0xbf4e71fa, 0xbf36f03b, 0x3eb84679, 0xbeb300e5, 0x3e100be7,  // -0.028509 -0.078434 0.160541 -0.806427 -0.714603 0.359913 -0.349616 0.140670
  0xbe8328fb, 0x3bce22d5, 0xbea2e7d5, 0x3d59d9d9, 0xbf847a81, 0x3ec6fdaf, 0xbf97b7cb, 0xbcbbf190,  // -0.256172 0.006291 -0.318175 0.053186 -1.034989 0.388654 -1.185296 -0.022942
  0xbfd94db8, 0xbe034555, 0x3e2fd002, 0xbe2a01dd, 0xbf40c201, 0xbe885f10, 0x3e7eda23, 0xbeffa368,  // -1.697684 -0.128194 0.171692 -0.166023 -0.752960 -0.266350 0.248879 -0.499294
  0xbeb11696, 0xbcacc268, 0x3e461e88, 0x3e0bc32a, 0xbee34d44, 0xbf40871d, 0xc095c577, 0x3f27cd12,  // -0.345875 -0.021089 0.193476 0.136487 -0.443949 -0.752062 -4.680355 0.655473
  0x3dd6804a, 0x3e9b8ab8, 0xbf36d04c, 0x3c426622, 0x3e9f2d10, 0x3d914fbd, 0xbd77aa3b, 0x3f0c26aa,  // 0.104737 0.303793 -0.714116 0.011865 0.310891 0.070953 -0.060465 0.547465
  0xbe8433f8, 0xbe89a286, 0xbd029948, 0x3e9c3889, 0xbf04b5e8, 0x3ec84982, 0xbe4bc089, 0xbd7dd173,  // -0.258209 -0.268818 -0.031884 0.305119 -0.518401 0.391186 -0.198977 -0.061967
  0x3da69b13, 0xbe62cdb4, 0xbf228e4e, 0xbe915583, 0xbeedda64, 0x3e2a646d, 0xbeba4025, 0x3f14e0df,  // 0.081350 -0.221488 -0.634984 -0.283856 -0.464557 0.166399 -0.363771 0.581556
  0x3e2c7d6b, 0xbe89924b, 0xbe0d7b90, 0x3eb58d9e, 0x3e2776c3, 0x3f404653, 0xbd0ed9f0, 0xbd35492f,  // 0.168447 -0.268694 -0.138167 0.354596 0.163539 0.751073 -0.034876 -0.044259
  0x3db5ad86, 0xbdbdcee0, 0x3ea6771d, 0xbf1739f7, 0x3f569e4a, 0xbd34e0a8, 0x3f304a5e, 0xbd7ec3f7,  // 0.088710 -0.092680 0.325128 -0.590728 0.838353 -0.044160 0.688635 -0.062199
  0xbc8d956f, 0x3e5a4c57, 0xbe59c555, 0x3cd15c18, 0xc0023591, 0x3bfb18dc, 0x3d0d5ddc, 0xbf188c80,  // -0.017283 0.213182 -0.212667 0.025557 -2.034519 0.007663 0.034513 -0.595894
  0x3cd85c56, 0xbf3a2417, 0xbefb30b3, 0xbe3c5749, 0xbf247da8, 0xbcdb88f9, 0xbe737fc7, 0x3ef90eed,  // 0.026411 -0.727113 -0.490606 -0.183927 -0.642542 -0.026799 -0.237792 0.486442
  0x3e046b8a, 0xbc9b5303, 0xbe1c358d, 0xbe2d6318, 0x3f425d0d, 0x3ce4f129, 0x3e0994d0, 0x3f1fc039,  // 0.129316 -0.018960 -0.152548 -0.169323 0.759232 0.027947 0.134357 0.624027
  0x3f1355f5, 0x3f2ccd00, 0xbdef15fe, 0xbf0790b1, 0x3f0055b9, 0xbe90085a, 0xbf89f873, 0x3a62cb9d,  // 0.575530 0.675003 -0.116741 -0.529552 0.501308 -0.281314 -1.077895 0.000865
  0x3f131258, 0x3d734fba, 0x3e1fc77f, 0x3e6ebe6f, 0xbeb06f22, 0x3c505c67, 0x3f3acbed, 0x3deed519,  // 0.574499 0.059402 0.156034 0.233148 -0.344598 0.012717 0.729674 0.116617
  0xbd812d0e, 0xbd8f00f2, 0x3e395448, 0x3dc414cd, 0xbea5741a, 0xbd925138, 0xbd97324c, 0x3e56ae4e,  // -0.063074 -0.069826 0.180986 0.095743 -0.323151 -0.071444 -0.073826 0.209649
  0xbe0b3963, 0xbd7d4678, 0x3dbc12d7, 0x3d8c45a8, 0x3dfc38ee, 0x3e07db15, 0x3dae1084, 0xbdd2f987,  // -0.135961 -0.061835 0.091833 0.068492 0.123155 0.132672 0.084992 -0.103015
  0x3dd3c92d // 0.103411
};
